{
  "version": "1.0",
  "truncation": null,
  "padding": null,
  "added_tokens": [
    {
      "id": 0,
      "content": "[UNK]",
      "single_word": false,
      "lstrip": false,
      "rstrip": false,
      "normalized": false,
      "special": true
    },
    {
      "id": 1,
      "content": "[PAD]",
      "single_word": false,
      "lstrip": false,
      "rstrip": false,
      "normalized": false,
      "special": true
    }
  ],
  "normalizer": null,
  "pre_tokenizer": {
    "type": "ByteLevel",
    "add_prefix_space": false,
    "trim_offsets": true,
    "use_regex": true
  },
  "post_processor": null,
  "decoder": {
    "type": "ByteLevel",
    "add_prefix_space": true,
    "trim_offsets": true,
    "use_regex": true
  },
  "model": {
    "type": "BPE",
    "dropout": null,
    "unk_token": "[UNK]",
    "continuing_subword_prefix": null,
    "end_of_word_suffix": null,
    "fuse_unk": false,
    "byte_fallback": false,
    "ignore_merges": false,
    "vocab": {
      "[UNK]": 0,
      "[PAD]": 1,
      "!": 2,
      "\"": 3,
      "#": 4,
      "$": 5,
      "%": 6,
      "&": 7,
      "'": 8,
      "(": 9,
      ")": 10,
      "*": 11,
      "+": 12,
      ",": 13,
      "-": 14,
      ".": 15,
      "/": 16,
      "0": 17,
      "1": 18,
      "2": 19,
      "3": 20,
      "4": 21,
      "5": 22,
      "6": 23,
      "7": 24,
      "8": 25,
      "9": 26,
      ":": 27,
      ";": 28,
      "<": 29,
      "=": 30,
      ">": 31,
      "?": 32,
      "@": 33,
      "A": 34,
      "B": 35,
      "C": 36,
      "D": 37,
      "E": 38,
      "F": 39,
      "G": 40,
      "H": 41,
      "I": 42,
      "J": 43,
      "K": 44,
      "L": 45,
      "M": 46,
      "N": 47,
      "O": 48,
      "P": 49,
      "Q": 50,
      "R": 51,
      "S": 52,
      "T": 53,
      "U": 54,
      "V": 55,
      "W": 56,
      "X": 57,
      "Y": 58,
      "Z": 59,
      "[": 60,
      "\\": 61,
      "]": 62,
      "^": 63,
      "_": 64,
      "`": 65,
      "a": 66,
      "b": 67,
      "c": 68,
      "d": 69,
      "e": 70,
      "f": 71,
      "g": 72,
      "h": 73,
      "i": 74,
      "j": 75,
      "k": 76,
      "l": 77,
      "m": 78,
      "n": 79,
      "o": 80,
      "p": 81,
      "q": 82,
      "r": 83,
      "s": 84,
      "t": 85,
      "u": 86,
      "v": 87,
      "w": 88,
      "x": 89,
      "y": 90,
      "z": 91,
      "{": 92,
      "|": 93,
      "}": 94,
      "~": 95,
      "¡": 96,
      "¢": 97,
      "£": 98,
      "¤": 99,
      "¥": 100,
      "¦": 101,
      "§": 102,
      "¨": 103,
      "©": 104,
      "ª": 105,
      "«": 106,
      "¬": 107,
      "®": 108,
      "¯": 109,
      "°": 110,
      "±": 111,
      "²": 112,
      "³": 113,
      "´": 114,
      "µ": 115,
      "¶": 116,
      "·": 117,
      "¸": 118,
      "¹": 119,
      "º": 120,
      "»": 121,
      "¼": 122,
      "½": 123,
      "¾": 124,
      "¿": 125,
      "À": 126,
      "Á": 127,
      "Â": 128,
      "Ã": 129,
      "Ä": 130,
      "Å": 131,
      "Æ": 132,
      "Ç": 133,
      "È": 134,
      "É": 135,
      "Ê": 136,
      "Ë": 137,
      "Ì": 138,
      "Í": 139,
      "Î": 140,
      "Ï": 141,
      "Ð": 142,
      "Ñ": 143,
      "Ò": 144,
      "Ó": 145,
      "Ô": 146,
      "Õ": 147,
      "Ö": 148,
      "×": 149,
      "Ø": 150,
      "Ù": 151,
      "Ú": 152,
      "Û": 153,
      "Ü": 154,
      "Ý": 155,
      "Þ": 156,
      "ß": 157,
      "à": 158,
      "á": 159,
      "â": 160,
      "ã": 161,
      "ä": 162,
      "å": 163,
      "æ": 164,
      "ç": 165,
      "è": 166,
      "é": 167,
      "ê": 168,
      "ë": 169,
      "ì": 170,
      "í": 171,
      "î": 172,
      "ï": 173,
      "ð": 174,
      "ñ": 175,
      "ò": 176,
      "ó": 177,
      "ô": 178,
      "õ": 179,
      "ö": 180,
      "÷": 181,
      "ø": 182,
      "ù": 183,
      "ú": 184,
      "û": 185,
      "ü": 186,
      "ý": 187,
      "þ": 188,
      "ÿ": 189,
      "Ā": 190,
      "ā": 191,
      "Ă": 192,
      "ă": 193,
      "Ą": 194,
      "ą": 195,
      "Ć": 196,
      "ć": 197,
      "Ĉ": 198,
      "ĉ": 199,
      "Ċ": 200,
      "ċ": 201,
      "Č": 202,
      "č": 203,
      "Ď": 204,
      "ď": 205,
      "Đ": 206,
      "đ": 207,
      "Ē": 208,
      "ē": 209,
      "Ĕ": 210,
      "ĕ": 211,
      "Ė": 212,
      "ė": 213,
      "Ę": 214,
      "ę": 215,
      "Ě": 216,
      "ě": 217,
      "Ĝ": 218,
      "ĝ": 219,
      "Ğ": 220,
      "ğ": 221,
      "Ġ": 222,
      "ġ": 223,
      "Ģ": 224,
      "ģ": 225,
      "Ĥ": 226,
      "ĥ": 227,
      "Ħ": 228,
      "ħ": 229,
      "Ĩ": 230,
      "ĩ": 231,
      "Ī": 232,
      "ī": 233,
      "Ĭ": 234,
      "ĭ": 235,
      "Į": 236,
      "į": 237,
      "İ": 238,
      "ı": 239,
      "Ĳ": 240,
      "ĳ": 241,
      "Ĵ": 242,
      "ĵ": 243,
      "Ķ": 244,
      "ķ": 245,
      "ĸ": 246,
      "Ĺ": 247,
      "ĺ": 248,
      "Ļ": 249,
      "ļ": 250,
      "Ľ": 251,
      "ľ": 252,
      "Ŀ": 253,
      "ŀ": 254,
      "Ł": 255,
      "ł": 256,
      "Ń": 257,
      "Ġt": 258,
      "Ġa": 259,
      "in": 260,
      "Ġf": 261,
      "el": 262,
      "Ġth": 263,
      "Ġi": 264,
      "Ġs": 265,
      "Ġfe": 266,
      "Ġw": 267,
      "Ġfeel": 268,
      "ing": 269,
      "Ġm": 270,
      "re": 271,
      "Ġb": 272,
      "Ġo": 273,
      "nd": 274,
      "Ġh": 275,
      "er": 276,
      "at": 277,
      "Ġthe": 278,
      "Ġto": 279,
      "ed": 280,
      "Ġl": 281,
      "ou": 282,
      "Ġand": 283,
      "Ġc": 284,
      "en": 285,
      "Ġd": 286,
      "on": 287,
      "Ġp": 288,
      "it": 289,
      "or": 290,
      "an": 291,
      "es": 292,
      "ll": 293,
      "is": 294,
      "Ġn": 295,
      "Ġg": 296,
      "Ġbe": 297,
      "Ġof": 298,
      "Ġfeeling": 299,
      "om": 300,
      "as": 301,
      "Ġin": 302,
      "ve": 303,
      "Ġthat": 304,
      "ar": 305,
      "Ġmy": 306,
      "us": 307,
      "le": 308,
      "ke": 309,
      "Ġe": 310,
      "ut": 311,
      "Ġwh": 312,
      "ot": 313,
      "Ġha": 314,
      "Ġli": 315,
      "ow": 316,
      "Ġre": 317,
      "Ġit": 318,
      "ay": 319,
      "im": 320,
      "et": 321,
      "ic": 322,
      "ver": 323,
      "Ġst": 324,
      "al": 325,
      "Ġlike": 326,
      "Ġso": 327,
      "gh": 328,
      "Ġy": 329,
      "ly": 330,
      "Ġon": 331,
      "ent": 332,
      "Ġme": 333,
      "Ġfor": 334,
      "id": 335,
      "Ġu": 336,
      "ld": 337,
      "Ġam": 338,
      "all": 339,
      "ith": 340,
      "Ġwas": 341,
      "Ġis": 342,
      "ac": 343,
      "Ġbut": 344,
      "Ġwith": 345,
      "Ġr": 346,
      "Ġhave": 347,
      "ion": 348,
      "Ġab": 349,
      "ad": 350,
      "Ġj": 351,
      "os": 352,
      "ant": 353,
      "out": 354,
      "Ġthis": 355,
      "Ġnot": 356,
      "Ġan": 357,
      "Ġas": 358,
      "ul": 359,
      "Ġyou": 360,
      "ust": 361,
      "ally": 362,
      "Ġsh": 363,
      "ch": 364,
      "ess": 365,
      "oo": 366,
      "Ġsom": 367,
      "Ġk": 368,
      "Ġabout": 369,
      "ri": 370,
      "ore": 371,
      "ght": 372,
      "Ġdo": 373,
      "Ġim": 374,
      "Ġsu": 375,
      "Ġhe": 376,
      "ill": 377,
      "th": 378,
      "ould": 379,
      "ec": 380,
      "Ġwe": 381,
      "Ġat": 382,
      "pp": 383,
      "very": 384,
      "ir": 385,
      "ous": 386,
      "op": 387,
      "am": 388,
      "use": 389,
      "ur": 390,
      "Ġjust": 391,
      "Ġne": 392,
      "Ġal": 393,
      "Ġor": 394,
      "Ġwhen": 395,
      "Ġbec": 396,
      "ter": 397,
      "ce": 398,
      "ain": 399,
      "Ġall": 400,
      "ive": 401,
      "art": 402,
      "ful": 403,
      "ause": 404,
      "nt": 405,
      "Ġcon": 406,
      "Ġbecause": 407,
      "Ġwor": 408,
      "Ġgo": 409,
      "ers": 410,
      "Ġmore": 411,
      "res": 412,
      "Ġkn": 413,
      "ate": 414,
      "Ġup": 415,
      "ight": 416,
      "Ġcom": 417,
      "Ġch": 418,
      "ab": 419,
      "red": 420,
      "elf": 421,
      "Ġcan": 422,
      "Ġex": 423,
      "Ġsome": 424,
      "Ġma": 425,
      "ro": 426,
      "one": 427,
      "Ġlo": 428,
      "Ġtr": 429,
      "Ġknow": 430,
      "Ġtim": 431,
      "Ġun": 432,
      "king": 433,
      "Ġget": 434,
      "fe": 435,
      "itt": 436,
      "Ġfr": 437,
      "ort": 438,
      "Ġare": 439,
      "ated": 440,
      "Ġout": 441,
      "Ġse": 442,
      "Ġreally": 443,
      "ely": 444,
      "il": 445,
      "ist": 446,
      "Ġv": 447,
      "Ġdon": 448,
      "ough": 449,
      "Ġby": 450,
      "Ġvery": 451,
      "self": 452,
      "Ġwant": 453,
      "ost": 454,
      "st": 455,
      "se": 456,
      "ind": 457,
      "Ġde": 458,
      "Ġbeen": 459,
      "ge": 460,
      "ell": 461,
      "Ġhow": 462,
      "Ġle": 463,
      "un": 464,
      "Ġif": 465,
      "hing": 466,
      "Ġwhat": 467,
      "Ġmyself": 468,
      "Ġpe": 469,
      "Ġtime": 470,
      "ra": 471,
      "ect": 472,
      "end": 473,
      "ong": 474,
      "Ġany": 475,
      "ast": 476,
      "ays": 477,
      "Ġthin": 478,
      "ct": 479,
      "Ġhad": 480,
      "ittle": 481,
      "Ġlittle": 482,
      "ven": 483,
      "qu": 484,
      "ty": 485,
      "Ġthey": 486,
      "Ġdid": 487,
      "Ġen": 488,
      "ation": 489,
      "Ġwill": 490,
      "Ġnow": 491,
      "Ġsomet": 492,
      "um": 493,
      "Ġsp": 494,
      "Ġwho": 495,
      "Ġwould": 496,
      "ress": 497,
      "ol": 498,
      "Ġthem": 499,
      "her": 500,
      "ard": 501,
      "ving": 502,
      "Ġfrom": 503,
      "Ġbeing": 504,
      "Ġthing": 505,
      "Ġpeop": 506,
      "Ġdis": 507,
      "Ġbit": 508,
      "Ġint": 509,
      "ood": 510,
      "able": 511,
      "Ġbl": 512,
      "Ġevery": 513,
      "Ġpeople": 514,
      "Ġher": 515,
      "em": 516,
      "Ġpre": 517,
      "ack": 518,
      "ound": 519,
      "Ġthan": 520,
      "Ġthink": 521,
      "Ġag": 522,
      "Ġhim": 523,
      "Ġeven": 524,
      "Ġar": 525,
      "Ġone": 526,
      "Ġstill": 527,
      "ep": 528,
      "Ġover": 529,
      "Ġneed": 530,
      "ass": 531,
      "est": 532,
      "pt": 533,
      "ious": 534,
      "uch": 535,
      "ved": 536,
      "ite": 537,
      "Ġlife": 538,
      "Ġcould": 539,
      "Ġaf": 540,
      "Ġthere": 541,
      "Ġits": 542,
      "ry": 543,
      "ose": 544,
      "Ġmake": 545,
      "ig": 546,
      "ook": 547,
      "Ġpro": 548,
      "ish": 549,
      "are": 550,
      "ure": 551,
      "ace": 552,
      "Ġno": 553,
      "Ġsomething": 554,
      "Ġpl": 555,
      "Ġlove": 556,
      "Ġoth": 557,
      "and": 558,
      "Ġtoo": 559,
      "Ġmuch": 560,
      "Ġaw": 561,
      "Ġwr": 562,
      "Ġus": 563,
      "Ġgoing": 564,
      "ie": 565,
      "Ġdont": 566,
      "Ġthings": 567,
      "Ġqu": 568,
      "day": 569,
      "Ġway": 570,
      "riend": 571,
      "Ġhel": 572,
      "Ġhapp": 573,
      "ag": 574,
      "ich": 575,
      "ear": 576,
      "oy": 577,
      "ine": 578,
      "Ġstart": 579,
      "Ġem": 580,
      "ked": 581,
      "ity": 582,
      "Ġhelp": 583,
      "ome": 584,
      "ide": 585,
      "Ġback": 586,
      "Ġcl": 587,
      "Ġday": 588,
      "Ġgr": 589,
      "thing": 590,
      "Ġshe": 591,
      "Ġsee": 592,
      "ile": 593,
      "ond": 594,
      "Ġhas": 595,
      "Ġstr": 596,
      "Ġsay": 597,
      "Ġman": 598,
      "Ġcomp": 599,
      "ame": 600,
      "Ġpret": 601,
      "ake": 602,
      "less": 603,
      "Ġgood": 604,
      "ting": 605,
      "Ġfriend": 606,
      "Ġgu": 607,
      "per": 608,
      "Ġad": 609,
      "ak": 610,
      "Ġrel": 611,
      "Ġres": 612,
      "reat": 613,
      "wh": 614,
      "Ġcont": 615,
      "Ġyour": 616,
      "ies": 617,
      "Ġshould": 618,
      "og": 619,
      "Ġpretty": 620,
      "Ġwork": 621,
      "Ġsa": 622,
      "act": 623,
      "Ġstu": 624,
      "ade": 625,
      "ning": 626,
      "Ġinto": 627,
      "Ġins": 628,
      "Ġhis": 629,
      "Ġpr": 630,
      "Ġwhich": 631,
      "Ġagain": 632,
      "ff": 633,
      "iss": 634,
      "Ġafter": 635,
      "ressed": 636,
      "ways": 637,
      "own": 638,
      "Ġrem": 639,
      "ere": 640,
      "Ġthese": 641,
      "Ġpart": 642,
      "Ġright": 643,
      "Ġac": 644,
      "Ġtheir": 645,
      "Ġtry": 646,
      "Ġact": 647,
      "our": 648,
      "Ġalways": 649,
      "so": 650,
      "Ġread": 651,
      "ble": 652,
      "Ġyear": 653,
      "Ġthr": 654,
      "Ġother": 655,
      "Ġhop": 656,
      "Ġfeelings": 657,
      "ft": 658,
      "Ġdi": 659,
      "Ġpers": 660,
      "ach": 661,
      "Ġonly": 662,
      "Ġalso": 663,
      "ment": 664,
      "ick": 665,
      "Ġimp": 666,
      "oc": 667,
      "Ġtoday": 668,
      "Ġsupp": 669,
      "od": 670,
      "uc": 671,
      "ually": 672,
      "Ġfeels": 673,
      "Ġthen": 674,
      "ber": 675,
      "ool": 676,
      "Ġwere": 677,
      "ought": 678,
      "Ġbet": 679,
      "Ġke": 680,
      "Ġlet": 681,
      "Ġsm": 682,
      "Ġaround": 683,
      "Ġoff": 684,
      "Ġgot": 685,
      "Ġperson": 686,
      "Ġmost": 687,
      "int": 688,
      "ened": 689,
      "ward": 690,
      "ice": 691,
      "Ġcant": 692,
      "Ġwee": 693,
      "Ġco": 694,
      "ath": 695,
      "Ġlong": 696,
      "Ġthrough": 697,
      "ip": 698,
      "Ġour": 699,
      "Ġlook": 700,
      "az": 701,
      "Ġkind": 702,
      "Ġmade": 703,
      "iz": 704,
      "Ġsc": 705,
      "ull": 706,
      "Ġdown": 707,
      "Ġtal": 708,
      "ree": 709,
      "ions": 710,
      "ily": 711,
      "Ġive": 712,
      "Ġbel": 713,
      "Ġless": 714,
      "ied": 715,
      "Ġwell": 716,
      "Ġmom": 717,
      "elt": 718,
      "Ġper": 719,
      "Ġhere": 720,
      "Ġreal": 721,
      "Ġthough": 722,
      "Ġdidnt": 723,
      "ured": 724,
      "kes": 725,
      "ud": 726,
      "Ġdes": 727,
      "Ġmay": 728,
      "Ġlot": 729,
      "Ġnever": 730,
      "ha": 731,
      "Ġthose": 732,
      "Ġapp": 733,
      "Ġfelt": 734,
      "Ġthought": 735,
      "Ġgl": 736,
      "ult": 737,
      "Ġwhere": 738,
      "other": 739,
      "Ġheart": 740,
      "Ġnew": 741,
      "Ġid": 742,
      "Ġbr": 743,
      "we": 744,
      "ang": 745,
      "Ġexp": 746,
      "ather": 747,
      "Ġter": 748,
      "Ġfa": 749,
      "Ġfind": 750,
      "Ġmo": 751,
      "Ġsomeone": 752,
      "ild": 753,
      "ue": 754,
      "ence": 755,
      "wn": 756,
      "Ġdays": 757,
      "cept": 758,
      "fied": 759,
      "Ġund": 760,
      "Ġhappy": 761,
      "ens": 762,
      "Ġhaving": 763,
      "fort": 764,
      "oint": 765,
      "Ġdoing": 766,
      "Ġmakes": 767,
      "Ġsl": 768,
      "ks": 769,
      "ci": 770,
      "Ġdoes": 771,
      "Ġenough": 772,
      "oss": 773,
      "Ġquite": 774,
      "Ġsin": 775,
      "Ġgen": 776,
      "med": 777,
      "ert": 778,
      "Ġmany": 779,
      "Ġcr": 780,
      "Ġsure": 781,
      "eci": 782,
      "Ġfl": 783,
      "Ġhome": 784,
      "ange": 785,
      "fore": 786,
      "iv": 787,
      "ten": 788,
      "Ġend": 789,
      "Ġfriends": 790,
      "Ġconf": 791,
      "ap": 792,
      "Ġaway": 793,
      "tt": 794,
      "Ġever": 795,
      "Ġwhy": 796,
      "read": 797,
      "Ġdist": 798,
      "Ġsupport": 799,
      "he": 800,
      "Ġte": 801,
      "Ġanything": 802,
      "age": 803,
      "vent": 804,
      "Ġdep": 805,
      "ired": 806,
      "Ġfin": 807,
      "com": 808,
      "Ġown": 809,
      "Ġpass": 810,
      "ance": 811,
      "ations": 812,
      "Ġhope": 813,
      "Ġkeep": 814,
      "be": 815,
      "Ġbetter": 816,
      "Ġfam": 817,
      "gg": 818,
      "Ġdec": 819,
      "leas": 820,
      "ected": 821,
      "Ġremem": 822,
      "Ġterri": 823,
      "Ġleft": 824,
      "Ġeverything": 825,
      "ont": 826,
      "Ġph": 827,
      "Ġwithout": 828,
      "Ġblog": 829,
      "Ġtw": 830,
      "Ġwond": 831,
      "Ġbefore": 832,
      "Ġlast": 833,
      "Ġworld": 834,
      "atch": 835,
      "Ġtell": 836,
      "Ġcome": 837,
      "Ġactually": 838,
      "imes": 839,
      "uct": 840,
      "ib": 841,
      "Ġtake": 842,
      "Ġsince": 843,
      "Ġsuch": 844,
      "Ġlist": 845,
      "Ġgetting": 846,
      "Ġdr": 847,
      "ans": 848,
      "ular": 849,
      "Ġremember": 850,
      "get": 851,
      "Ġmiss": 852,
      "Ġamaz": 853,
      "Ġmor": 854,
      "iting": 855,
      "Ġsometimes": 856,
      "Ġhtt": 857,
      "Ġhttp": 858,
      "led": 859,
      "Ġhon": 860,
      "Ġwhile": 861,
      "Ġwonder": 862,
      "Ġcare": 863,
      "Ġgener": 864,
      "Ġfir": 865,
      "aring": 866,
      "ited": 867,
      "Ġdisc": 868,
      "Ġtrying": 869,
      "rr": 870,
      "Ġself": 871,
      "Ġpost": 872,
      "ertain": 873,
      "used": 874,
      "Ġchild": 875,
      "ness": 876,
      "Ġpain": 877,
      "au": 878,
      "Ġbad": 879,
      "Ġput": 880,
      "Ġang": 881,
      "Ġmoment": 882,
      "Ġfew": 883,
      "ren": 884,
      "Ġro": 885,
      "Ġel": 886,
      "Ġfirst": 887,
      "Ġexc": 888,
      "Ġtimes": 889,
      "Ġemot": 890,
      "Ġaccept": 891,
      "ves": 892,
      "Ġhard": 893,
      "imp": 894,
      "Ġjo": 895,
      "peri": 896,
      "ody": 897,
      "ating": 898,
      "ately": 899,
      "Ġstarted": 900,
      "Ġfamily": 901,
      "ual": 902,
      "Ġable": 903,
      "Ġhor": 904,
      "Ġpleas": 905,
      "ason": 906,
      "Ġcou": 907,
      "Ġsaid": 908,
      "ged": 909,
      "ky": 910,
      "Ġuse": 911,
      "Ġsad": 912,
      "Ġhate": 913,
      "irl": 914,
      "ave": 915,
      "Ġsch": 916,
      "itated": 917,
      "ned": 918,
      "ortant": 919,
      "Ġseem": 920,
      "Ġsit": 921,
      "ict": 922,
      "Ġweek": 923,
      "Ġbook": 924,
      "Ġcall": 925,
      "Ġrather": 926,
      "aking": 927,
      "ys": 928,
      "Ġinc": 929,
      "Ġrun": 930,
      "Ġalone": 931,
      "Ġatt": 932,
      "Ġmaking": 933,
      "Ġhur": 934,
      "Ġgirl": 935,
      "Ġgi": 936,
      "ner": 937,
      "let": 938,
      "Ġalread": 939,
      "erst": 940,
      "Ġalready": 941,
      "Ġtri": 942,
      "Ġwal": 943,
      "ref": 944,
      "Ġcra": 945,
      "Ġrec": 946,
      "Ġswe": 947,
      "Ġbeg": 948,
      "ird": 949,
      "orm": 950,
      "Ġcons": 951,